[PAD]
[UNK]
[CLS]
[SEP]
[MASK]
!
)
,
-
.
/
0
1
2
3
4
5
6
7
8
9
?
A
B
C
D
E
G
K
L
M
N
O
P
S
T
U
a
c
d
e
g
h
i
k
l
m
n
o
p
r
s
t
x
~
·
“
”
…
、
。
《
》
一
七
万
三
上
下
不
与
专
且
世
业
东
丝
丢
两
严
个
中
丰
临
为
主
乃
久
么
义
之
乎
乐
也
习
书
买
乱
了
事
二
于
五
亚
些
交
产
京
亮
亲
人
什
仅
今
介
仍
从
仔
他
付
代
以
们
件
价
任
份
优
会
传
伤
估
似
但
位
低
住
体
何
作
你
使
例
供
依
侧
便
保
信
修
倒
候
借
值
假
偏
做
像
儿
元
充
先
光
克
免
入
全
八
公
六
共
关
兴
其
具
典
内
册
再
写
冲
决
况
净
准
凑
几
出
刀
分
切
划
列
则
刚
初
利
别
到
制
刷
刺
刻
前
力
办
功
加
务
动
助
劲
包
化
区
十
千
午
半
华
单
卖
卡
印
即
却
厂
历
压
厚
原
去
参
又
及
友
双
反
发
取
受
变
口
句
另
只
叫
可
台
史
右
号
司
吃
各
合
同
名
后
向
吗
否
吧
听
启
吸
呀
告
员
呢
周
味
呵
和
品
哈
响
哦
哪
售
唯
商
啊
啥
啦
喜
喝
嘛
器
四
回
因
围
固
国
图
在
地
场
圾
坏
坑
块
坚
垃
型
垫
基
塑
塞
士
声
壳
处
备
复
外
多
够
大
天
太
失
头
奇
套
女
奶
她
好
如
妈
始
子
字
存
学
孩
它
安
完
官
定
宜
宝
实
客
害
家
容
宽
寄
密
富
对
导
封
将
小
少
尔
尤
就
尺
尽
局
层
居
屏
展
属
岁
工
左
巧
差
己
已
市
布
师
希
带
帮
常
幕
干
平
年
并
广
序
库
应
底
店
废
度
建
开
异
弄
式
引
张
强
当
录
形
彩
影
往
待
很
得
微
德
心
必
忍
忘
快
念
怀
态
怎
怕
思
急
性
怪
总
息
恶
悔
情
惊
惜
惠
惯
想
意
感
慎
慢
懂
懒
成
我
或
战
戴
户
所
手
才
打
扔
扣
找
承
技
把
投
折
护
报
担
拆
拉
拍
择
拼
拿
持
挂
指
按
挺
损
换
据
掉
排
接
控
推
描
提
插
搞
搭
摔
摸
撕
操
擦
支
收
改
放
故
效
教
敢
散
数
整
文
料
断
斯
新
方
无
既
日
旧
早
时
明
易
星
昨
是
显
晚
普
景
晰
更
最
月
有
朋
服
望
期
木
未
本
术
机
杀
杂
材
条
来
杯
松
板
极
析
果
架
某
柔
柜
查
标
校
样
根
格
案
档
检
棒
楚
概
模
次
欢
欺
款
止
正
此
步
死
段
每
比
毕
毛
毫
气
水
求
池
沟
没
沫
油
法
泡
注
洁
洗
洞
活
流
浅
测
浪
海
涂
消
淘
淡
深
混
清
温
游
湿
源
滑
满
漂
漏
灯
灰
灵
点
烂
烦
热
然
照
爱
爽
片
版
牌
牙
牛
物
特
状
狗
独
猫
率
玩
环
现
球
理
瑕
瓶
生
用
由
申
电
画
畅
界
留
略
疑
病
痕
白
百
的
皮
皱
盒
盖
盗
盘
目
直
相
省
看
真
眼
着
知
短
码
研
破
础
硬
确
碎
碰
磕
磨
示
礼
社
神
票
离
种
科
秒
积
程
稍
税
究
空
穿
突
立
站
竟
章
笑
笔
符
第
等
答
签
简
算
管
箱
篇
籍
米
类
粉
粗
粘
精
糊
糕
糙
糟
系
素
索
紧
红
级
纯
纸
线
练
细
终
绍
经
结
给
绝
统
继
续
维
编
缝
缺
罐
网
置
美
翻
老
考
者
而
耐
耳
联
股
肤
肯
背
胶
能
脏
脑
脚
脱
脸
腻
膜
自
至
致
舒
般
良
色
艺
节
花
英
茶
荐
营
落
著
蒙
蓝
薄
藏
虑
虚
虽
蛮
行
衣
补
表
袋
被
裂
装
裤
裹
西
要
见
观
视
觉
角
解
触
言
计
订
认
让
议
记
讲
许
论
设
证
评
识
诉
词
译
试
话
询
该
详
语
误
说
请
读
课
谁
调
谓
谢
象
贝
负
责
货
质
购
贴
贵
费
资
赚
赞
赠
走
赶
起
超
越
趣
足
跑
距
跟
路
跳
身
车
转
软
轻
载
较
辑
输
边
达
过
运
近
还
这
进
远
连
迟
述
迹
退
送
适
选
逊
透
递
通
速
造
逻
遇
遍
道
遗
那
邮
部
都
配
酒
醉
醒
释
里
重
量
金
针
钟
钢
钱
铁
链
销
锅
锈
错
键
镜
长
门
问
间
闷
闻
阅
防
附
际
陋
降
限
除
随
隔
难
集
零
需
静
非
靠
面
鞋
音
页
顺
须
顾
预
频
颗
题
颜
风
食
馈
首
香
马
验
骗
高
麻
黄
黑
鼻
！
（
）
，
：
；
？
～
##5
##k
##g
##2
##3
##7
##0
##K
##4
##C
##x
##t
##e
##a
##s
##l
##d
##p
##h
##o
##n
##P
##L
##E
##1
##i
##c
##G
##6
##D
##8
##～
##A
##r
##m
##9
##S
##M
##N
##U
##O
##B
##T
20
10
201
##00
##in
12
17
##le
##dle
##indle
14
16
22
11
kindle
23
30
15
##99
18
40
100
24
13
##on
200
25
50
##kg
19
38
##cm
2018
##ad
36
39
300
##ma
2015
26
29
35
37
C0
##en
##er
2014
##maon
70
90
##hin
2016
27
31
500
99
21
28
32
400
60
Kindle
##pp
##ic
##im
42
75
pr
2017
C02
80
US
in
##pad
##hon
2013
170
CD
EM
TM
amaon
app
～～
##la
##ml
##ime
##hone
EMS
199
34
69
699
iP
mad
##31
##an
##os
##16
##AT
180
##hina
prime
USB
made
47
41
48
55
68
78
Amaon
xx
##kpad
##go
##te
##ta
##ac
##pen
##LE
##12
175
304
##hinkpad
299
4G
54
59
63
74
OK
SAT
UK
china
lo
thinkpad
##as
##or
##PP
##65
##80
##ML
1000
120
174
165
168
229
110
75kg
iPhone
33
45
52
51
66
600
71
85
8G
96
900
APP
KN
LE
PS
cla
le
min
ra
xl
##21
##400
##ee
##am
##ol
##oo
##it
##il
##84
##～～
##98
##US
1231
178
140
160
350
C01
315
32G
##ice
##ics
KND
mini
12315
08
2G
3D
4g
43
44
56
58
599
64
61
88
CK
ES
Open
Un
ip
ipad
mp
ok
open
##ge
##76
##Kg
##CM
##tt
##ea
##al
##ps
##10
##cc
##GL
##AA
##rk
##OS
##ON
##BS
102
##000
##ing
123
173
177
176
145
148
16G
1600
220
228
158
255
250
380
3000
265
##ent
pro
TMD
473
174cm
LED
lego
##eed
KNDLE
OpenGL
iphone
mp3
1A
4L
46
49
4S
53
5C
62
67
72
77
76
799
95
98
999
Ai
Am
Acc
CN
China
D3
DP
Gam
Lam
MP
Mac
PC
PUS
POS
SE
SM
Tr
TB
UP
cp
dd
dan
em
gs
is
ma
m1
mi
mac
no
nice
or
oice
per
re
sp
sh
so
tx
th
tm
##55
##58
##512
##kin
##20
##28
##74
##79
##47
##CD
##ts
##el
##ar
##ain
##ala
##st
##ss
##lim
##pt
##ox
##od
##PA
##LUS
##EPA
##18
##19
##id
##ii
##ion
##ipp
##ite
##ce
##GO
##D8
##DM
##83
##90
##96
##N7
##UK
##BL
##TC
2000
109
2011
##ine
##inta
124
171
144
224
112
113
116
230
182
188
244
24CM
2479
132
138
139
256
50ml
190
1965
1980
360
369
##eric
70kg
5000
500ML
213
210
60kg
～～～～
345
698
##oss
##1698
##tar
##ack
175cm
logo
iPhone7
330
71kg
clark
class
##old
350ML
Unlim
##7621
##tter
##105
173cm
4737621
Air
Americ
Accent
CNA
Game
MP3
Train
ddr
dang
ems
gstar
note
perl
shit
txt
tmi
##ippo
##ited
##intage
2479105
19651698
～～～～～
clarks
classics
Unlimited
American
Training
1965169816
